[PAD]	0
[UNK]	0
[BOS]	0
[EOS]	0
[SEP]	0
[CLS]	0
[MASK]	0
[MUSIC]	0
[LYRIC]	0
[CHORUS]	0
[VERSE]	0
[BRIDGE]	0
[INTRO]	0
[OUTRO]	0
[INSTRUMENTAL]	0
<0x00>	0
<0x01>	0
<0x02>	0
<0x03>	0
<0x04>	0
<0x05>	0
<0x06>	0
<0x07>	0
<0x08>	0
<0x09>	0
<0x0A>	0
<0x0B>	0
<0x0C>	0
<0x0D>	0
<0x0E>	0
<0x0F>	0
<0x10>	0
<0x11>	0
<0x12>	0
<0x13>	0
<0x14>	0
<0x15>	0
<0x16>	0
<0x17>	0
<0x18>	0
<0x19>	0
<0x1A>	0
<0x1B>	0
<0x1C>	0
<0x1D>	0
<0x1E>	0
<0x1F>	0
<0x20>	0
<0x21>	0
<0x22>	0
<0x23>	0
<0x24>	0
<0x25>	0
<0x26>	0
<0x27>	0
<0x28>	0
<0x29>	0
<0x2A>	0
<0x2B>	0
<0x2C>	0
<0x2D>	0
<0x2E>	0
<0x2F>	0
<0x30>	0
<0x31>	0
<0x32>	0
<0x33>	0
<0x34>	0
<0x35>	0
<0x36>	0
<0x37>	0
<0x38>	0
<0x39>	0
<0x3A>	0
<0x3B>	0
<0x3C>	0
<0x3D>	0
<0x3E>	0
<0x3F>	0
<0x40>	0
<0x41>	0
<0x42>	0
<0x43>	0
<0x44>	0
<0x45>	0
<0x46>	0
<0x47>	0
<0x48>	0
<0x49>	0
<0x4A>	0
<0x4B>	0
<0x4C>	0
<0x4D>	0
<0x4E>	0
<0x4F>	0
<0x50>	0
<0x51>	0
<0x52>	0
<0x53>	0
<0x54>	0
<0x55>	0
<0x56>	0
<0x57>	0
<0x58>	0
<0x59>	0
<0x5A>	0
<0x5B>	0
<0x5C>	0
<0x5D>	0
<0x5E>	0
<0x5F>	0
<0x60>	0
<0x61>	0
<0x62>	0
<0x63>	0
<0x64>	0
<0x65>	0
<0x66>	0
<0x67>	0
<0x68>	0
<0x69>	0
<0x6A>	0
<0x6B>	0
<0x6C>	0
<0x6D>	0
<0x6E>	0
<0x6F>	0
<0x70>	0
<0x71>	0
<0x72>	0
<0x73>	0
<0x74>	0
<0x75>	0
<0x76>	0
<0x77>	0
<0x78>	0
<0x79>	0
<0x7A>	0
<0x7B>	0
<0x7C>	0
<0x7D>	0
<0x7E>	0
<0x7F>	0
<0x80>	0
<0x81>	0
<0x82>	0
<0x83>	0
<0x84>	0
<0x85>	0
<0x86>	0
<0x87>	0
<0x88>	0
<0x89>	0
<0x8A>	0
<0x8B>	0
<0x8C>	0
<0x8D>	0
<0x8E>	0
<0x8F>	0
<0x90>	0
<0x91>	0
<0x92>	0
<0x93>	0
<0x94>	0
<0x95>	0
<0x96>	0
<0x97>	0
<0x98>	0
<0x99>	0
<0x9A>	0
<0x9B>	0
<0x9C>	0
<0x9D>	0
<0x9E>	0
<0x9F>	0
<0xA0>	0
<0xA1>	0
<0xA2>	0
<0xA3>	0
<0xA4>	0
<0xA5>	0
<0xA6>	0
<0xA7>	0
<0xA8>	0
<0xA9>	0
<0xAA>	0
<0xAB>	0
<0xAC>	0
<0xAD>	0
<0xAE>	0
<0xAF>	0
<0xB0>	0
<0xB1>	0
<0xB2>	0
<0xB3>	0
<0xB4>	0
<0xB5>	0
<0xB6>	0
<0xB7>	0
<0xB8>	0
<0xB9>	0
<0xBA>	0
<0xBB>	0
<0xBC>	0
<0xBD>	0
<0xBE>	0
<0xBF>	0
<0xC0>	0
<0xC1>	0
<0xC2>	0
<0xC3>	0
<0xC4>	0
<0xC5>	0
<0xC6>	0
<0xC7>	0
<0xC8>	0
<0xC9>	0
<0xCA>	0
<0xCB>	0
<0xCC>	0
<0xCD>	0
<0xCE>	0
<0xCF>	0
<0xD0>	0
<0xD1>	0
<0xD2>	0
<0xD3>	0
<0xD4>	0
<0xD5>	0
<0xD6>	0
<0xD7>	0
<0xD8>	0
<0xD9>	0
<0xDA>	0
<0xDB>	0
<0xDC>	0
<0xDD>	0
<0xDE>	0
<0xDF>	0
<0xE0>	0
<0xE1>	0
<0xE2>	0
<0xE3>	0
<0xE4>	0
<0xE5>	0
<0xE6>	0
<0xE7>	0
<0xE8>	0
<0xE9>	0
<0xEA>	0
<0xEB>	0
<0xEC>	0
<0xED>	0
<0xEE>	0
<0xEF>	0
<0xF0>	0
<0xF1>	0
<0xF2>	0
<0xF3>	0
<0xF4>	0
<0xF5>	0
<0xF6>	0
<0xF7>	0
<0xF8>	0
<0xF9>	0
<0xFA>	0
<0xFB>	0
<0xFC>	0
<0xFD>	0
<0xFE>	0
<0xFF>	0
\[	-0
\]	-1
▁\[	-2
IC	-3
LY	-4
LYR	-5
LYRIC	-6
ன்	-7
ம்	-8
▁ப	-9
▁க	-10
்க	-11
்த	-12
▁வ	-13
▁[	-14
ல்	-15
▁ந	-16
..	-17
▁த	-18
▁ம	-19
்ட	-20
ும்	-21
க்க	-22
al	-23
▁ச	-24
ale	-25
▁எ	-26
er	-27
ட்ட	-28
▁அ	-29
se	-30
த்த	-31
ந்த	-32
▁உ	-33
▁இ	-34
்ச	-35
ன்ன	-36
ண்	-37
erse	-38
ER	-39
SE	-40
VER	-41
VERSE	-42
டி	-43
▁–	-44
ரு	-45
▁ஆ	-46
ல்ல	-47
male	-48
ங்க	-49
ப்	-50
ள்	-51
ான்	-52
து	-53
▁போ	-54
▁கா	-55
ப்ப	-56
ைய	-57
ய்	-58
ிய	-59
ச்ச	-60
ta	-61
ேன்	-62
Male	-63
▁ஹ	-64
ார	-65
▁நீ	-66
ில்	-67
க்கு	-68
Verse	-69
verse	-70
டு	-71
...	-72
▁வா	-73
ண்ட	-74
▁ஒ	-75
:]	-76
emale	-77
▁என்	-78
....	-79
லே	-80
ண்ண	-81
மா	-82
ஞ்ச	-83
ிர	-84
று	-85
▁மு	-86
ட்டு	-87
▁கொ	-88
தே	-89
ான	-90
▁பா	-91
▁ஓ	-92
▁என்ன	-93
il	-94
▁ர	-95
▁வி	-96
ள்ள	-97
ro	-98
Female	-99
▁ஏ	-100
da	-101
▁-	-102
▁நான்	-103
or	-104
mil	-105
ிற	-106
▁கு	-107
tamil	-108
data	-109
▁சொ	-110
▁பெ	-111
▁male	-112
த்து	-113
▁ஆண்	-114
ர்	-115
▁மா	-116
ாய்	-117
▁Male	-118
டா	-119
▁உன்	-120
ட்டி	-121
▁ஹே	-122
ல்லா	-123
▁காத	-124
▁நி	-125
en	-126
லை	-127
US	-128
▁ய	-129
லா	-130
வி	-131
▁வெ	-132
▁உன்ன	-133
▁பு	-134
ழு	-135
▁வந்த	-136
னி	-137
▁தே	-138
▁வே	-139
▁பூ	-140
▁செ	-141
▁சி	-142
ாக	-143
▁நெ	-144
▁ஒரு	-145
மே	-146
ep	-147
ால	-148
▁பார	-149
▁பே	-150
த்தி	-151
ச்சு	-152
▁ஜ	-153
▁கண்ண	-154
ok	-155
தி	-156
றி	-157
ால்	-158
▁பெண்	-159
னை	-160
க்	-161
▁ட	-162
▁பொ	-163
வா	-164
ரம்	-165
▁கூ	-166
்த்த	-167
▁:	-168
▁காதல்	-169
ற்	-170
........	-171
ழக	-172
]:	-173
▁தொ	-174
வு	-175
th	-176
ின்	-177
female	-178
▁சு	-179
in	-180
க்கும்	-181
▁தா	-182
ங்கு	-183
St	-184
கம்	-185
iz	-186
▁தான்	-187
up	-188
▁மன	-189
▁இரு	-190
oken	-191
▁கி	-192
ந்து	-193
mp	-194
டும்	-195
rc	-196
set	-197
xt	-198
pro	-199
ாம	-200
Cor	-201
▁தி	-202
Step	-203
:\	-204
AC	-205
M7	-206
▁Z	-207
ACE	-208
MUS	-209
mpt	-210
src	-211
txt	-212
Corp	-213
izer	-214
MUSIC	-215
token	-216
M7Corp	-217
prompt	-218
dataset	-219
tokenizer	-220
லி	-221
ாத	-222
ியே	-223
னே	-224
▁கே	-225
▁வர	-226
▁நெஞ்ச	-227
an	-228
▁மே	-229
னா	-230
roup	-231
ண்டு	-232
யே	-233
▁சொல்ல	-234
▁இல்ல	-235
▁நான	-236
ழி	-237
▁அடி	-238
▁தூ	-239
▁ஹோ	-240
சு	-241
▁சே	-242
▁நா	-243
யா	-244
▁அழக	-245
▁தீ	-246
யி	-247
▁து	-248
▁அவ	-249
▁Female	-250
Group	-251
us	-252
ங்கி	-253
ப்போ	-254
ட்டா	-255
தும்	-256
▁அட	-257
at	-258
▁நே	-259
▁வாழ	-260
▁(	-261
லு	-262
க்கி	-263
வே	-264
ளி	-265
ரி	-266
கு	-267
யிர	-268
்க்க	-269
மி	-270
ன்ற	-271
▁1	-272
hor	-273
ன்னு	-274
ல்லாம்	-275
▁கோ	-276
▁பி	-277
சி	-278
ன்ப	-279
ப்பு	-280
horus	-281
தை	-282
ம்ப	-283
CH	-284
OR	-285
ாலே	-286
CHOR	-287
CHORUS	-288
▁என்னை	-289
சை	-290
▁female	-291
▁ஊ	-292
▁என	-293
தான்	-294
ிரி	-295
ன்று	-296
கள்	-297
▁மீ	-298
▁உன்னை	-299
on	-300
▁மெ	-301
▁ரா	-302
ையே	-303
ம்மா	-304
▁தோ	-305
ோடு	-306
னு	-307
டை	-308
ரா	-309
த்தா	-310
ஸ்	-311
ச்சி	-312
▁இது	-313
ஆண்	-314
க்கிற	-315
▁கொஞ்ச	-316
ழை	-317
▁ல	-318
றேன்	-319
▁யார	-320
ட்டும்	-321
▁ஹேய்	-322
ியா	-323
▁உயிர	-324
Chorus	-325
ானே	-326
▁வீ	-327
ங்கள்	-328
ற்ற	-329
னம்	-330
▁தெ	-331
க்கா	-332
▁போல	-333
ar	-334
ரை	-335
ையா	-336
▁போக	-337
▁ஹா	-338
ளை	-339
▁இந்த	-340
ளே	-341
ய்ய	-342
▁கை	-343
ையில்	-344
்வ	-345
▁எங்க	-346
▁பார்த்த	-347
மை	-348
ந்தன்	-349
▁ஜி	-350
▁இத	-351
கி	-352
▁m	-353
ண்டா	-354
▁R	-355
eat	-356
தா	-357
த்தில்	-358
▁அது	-359
ாலும்	-360
ந்தி	-361
க்கம்	-362
த்தம்	-363
▁உள்ள	-364
▁இல்லை	-365
ட்க	-366
ணும்	-367
▁மூ	-368
▁நானும்	-369
சா	-370
ையி	-371
ட்டம்	-372
▁வந்து	-373
▁உன	-374
யும்	-375
▁நட	-376
**	-377
▁இனி	-378
▁போன	-379
ஹா	-380
▁அன்ப	-381
த்	-382
▁கட	-383
வ்	-384
ஹோ	-385
ப்பா	-386
்கள்	-387
பு	-388
▁மி	-389
ச்சா	-390
▁நேரம்	-391
ரும்	-392
▁தந்த	-393
▁யா	-394
................	-395
ம்ம	-396
க்குள்ள	-397
▁மோ	-398
▁வை	-399
▁இவ	-400
▁மற	-401
▁மொ	-402
ஞ்சி	-403
aa	-404
பி	-405
▁வார	-406
▁பெண்ண	-407
ேனே	-408
ணி	-409
சம்	-410
▁ஆன	-411
ட்டேன்	-412
ெல்லாம்	-413
ளு	-414
யம்	-415
லம்	-416
▁வரு	-417
ண்டும்	-418
RO	-419
TRO	-420
ல்லை	-421
epeat	-422
▁சூ	-423
ன்னா	-424
ள்ளி	-425
▁b	-426
▁ஐ	-427
டிய	-428
ண்டி	-429
ந்தேன்	-430
▁s	-431
ையும்	-432
▁வரும்	-433
மு	-434
▁சா	-435
▁பற	-436
வேன்	-437
▁2	-438
ri	-439
▁கன	-440
ட்	-441
ணா	-442
வும்	-443
▁ஓஹோ	-444
னோ	-445
▁ஆசை	-446
▁கூட	-447
▁கண்ட	-448
ங்	-449
▁{	-450
ரிய	-451
la	-452
▁கட்டி	-453
தோ	-454
வை	-455
▁g	-456
ாமல்	-457
ரே	-458
2)	-459
ou	-460
▁c	-461
பெ	-462
மோ	-463
▁பேச	-464
ti	-465
தடி	-466
▁அத	-467
ல்லு	-468
ண்ணி	-469
▁சிரி	-470
▁w	-471
▁எல்லாம்	-472
▁பார்க்க	-473
ve	-474
▁முத	-475
▁கொஞ்சம்	-476
▁I	-477
கிற	-478
▁ஆஆ	-479
பெண்	-480
றும்	-481
▁மனம்	-482
▁ரெ	-483
▁தேடி	-484
am	-485
▁அந்த	-486
▁S	-487
ing	-488
ங்கா	-489
ப்பேன்	-490
▁வந்தா	-491
...]	-492
கா	-493
போ	-494
ல்லி	-495
றா	-496
ந்தா	-497
லும்	-498
▁உல	-499
ண்ணு	-500
▁கொண்ட	-501
▁கண	-502
க்கோ	-503
ங்கே	-504
et	-505
ோட	-506
டம்	-507
▁நினை	-508
▁போதும்	-509
▁உற	-510
▁முன்ன	-511
▁பெண்ணே	-512
ென	-513
▁புடி	-514
▁Group	-515
▁நீயும்	-516
ற்று	-517
▁மழை	-518
▁கும்	-519
டுதே	-520
▁கண்	-521
ங்கும்	-522
▁கண்ணு	-523
▁ஆஹா	-524
um	-525
ச்	-526
ார்	-527
▁தொட	-528
▁குழு	-529
ra	-530
▁p	-531
ழிய	-532
லாம்	-533
ர்த்த	-534
▁விழி	-535
ge	-536
▁}	-537
ோம்	-538
த்தை	-539
னும்	-540
▁உந்தன்	-541
▁விட்டு	-542
IN	-543
▁L	-544
▁தேவ	-545
▁கொடு	-546
▁முடி	-547
ch	-548
▁பாட	-549
INTRO	-550
▁போது	-551
ன்னும்	-552
▁சொல்லு	-553
▁இர	-554
▁மல	-555
▁பார்வ	-556
▁மை	-557
ளில்	-558
▁மட்டும்	-559
na	-560
கை	-561
▁a	-562
ாரி	-563
▁கெ	-564
▁கேட்க	-565
▁நெஞ்சு	-566
ய்த	-567
ானா	-568
▁என்று	-569
ஞ்சு	-570
மும்	-571
ளும்	-572
▁எது	-573
▁சேர்	-574
க்குது	-575
▁சின்ன	-576
ஜா	-577
ாரே	-578
▁கல	-579
▁தன	-580
▁ஹோய்	-581
▁முத்தம்	-582
ஃப	-583
▁C	-584
▁அன்பே	-585
▁சோ	-586
▁வாடி	-587
▁விழு	-588
ook	-589
ையை	-590
▁நூ	-591
ப்பி	-592
▁அரு	-593
ad	-594
▁3	-595
▁B	-596
வன்	-597
ச்சோ	-598
னில்	-599
▁டு	-600
▁உரு	-601
▁ஏன்	-602
▁கரு	-603
▁முதல்	-604
▁ஜிங்கு	-605
re	-606
ணை	-607
றை	-608
▁y	-609
▁**	-610
▁th	-611
▁ரோ	-612
▁மேல	-613
▁உயிர்	-614
▁எந்தன்	-615
rid	-616
▁என்ற	-617
▁சிறு	-618
▁வேணா	-619
▁இல்லா	-620
li	-621
க்கொ	-622
திர	-623
ridge	-624
ப்படி	-625
▁மனசு	-626
▁யே	-627
வில்	-628
ிறேன்	-629
யோ	-630
ழ்	-631
▁உட	-632
▁ஜோ	-633
▁மய	-634
ையில	-635
▁செல்ல	-636
▁பாத்து	-637
ணு	-638
▁M	-639
ஃபை	-640
ற்றி	-641
▁விர	-642
▁புது	-643
▁உனக்க	-644
க்கிறேன்	-645
ட்ச	-646
ணம்	-647
▁லா	-648
ாகம்	-649
த்தான்	-650
▁எனக்கு	-651
le	-652
.....	-653
▁அவள்	-654
▁தொலை	-655
▁எங்கே	-656
ளம்	-657
ாமி	-658
ாரா	-659
▁me	-660
▁லை	-661
யிலே	-662
▁(2)	-663
▁காலம்	-664
▁சொன்ன	-665
▁சொல்லி	-666
கே	-667
திய	-668
▁பச்ச	-669
▁யார்	-670
▁புள்ள	-671
▁Chorus	-672
▁வார்த்த	-673
kk	-674
தம்	-675
▁ஓஓ	-676
▁சீ	-677
யில்	-678
க்குள்	-679
▁தொட்டு	-680
▁நெஞ்சில்	-681
▁D	-682
க்குற	-683
▁போடு	-684
▁வாழ்	-685
▁இன்று	-686
▁போட்டு	-687
es	-688
it	-689
tro	-690
▁ஒன்ற	-691
▁துடி	-692
▁மேலே	-693
மீ	-694
ளா	-695
▁H	-696
▁தர	-697
▁கால	-698
▁பாரு	-699
▁இதயம்	-700
▁இப்போ	-701
▁ஒன்னு	-702
▁ஒன்று	-703
▁செய்த	-704
ey	-705
▁h	-706
▁ஸ்	-707
ம்ம்	-708
▁கவி	-709
▁லவ்	-710
▁காதல	-711
▁தானே	-712
▁திரு	-713
▁வானம்	-714
▁இருந்த	-715
un	-716
▁f	-717
▁ஈ	-718
ன்ம	-719
ச்சே	-720
ென்ன	-721
▁பிற	-722
▁மனச	-723
▁&	-724
▁4	-725
▁F	-726
ன்னி	-727
▁சொல்	-728
ருக்கு	-729
▁கண்டு	-730
▁சொல்லா	-731
▁t	-732
▁டா	-733
▁அலே	-734
▁தலை	-735
▁நிழ	-736
த்துல	-737
▁கொள்ள	-738
▁Repeat	-739
▁கண்டேன்	-740
▁E	-741
வம்	-742
▁இள	-743
தானே	-744
மாய்	-745
▁you	-746
▁அழகே	-747
▁நெரு	-748
▁போல்	-749
Bridge	-750
▁யாரும்	-751
ol	-752
zh	-753
டே	-754
▁கீ	-755
ட்டை	-756
▁வாச	-757
▁நம்ம	-758
▁கும்ம	-759
▁கண்கள்	-760
▁கொண்டு	-761
▁நெஞ்சம்	-762
ae	-763
குதே	-764
லையே	-765
வான்	-766
ின்ற	-767
▁இழு	-768
▁காண	-769
▁விள	-770
▁நானே	-771
▁மாமா	-772
▁காற்ற	-773
▁இருக்கு	-774
st	-775
ாகி	-776
inal	-777
▁அழை	-778
▁திர	-779
▁வழி	-780
▁என்ப	-781
▁சந்த	-782
▁தும்	-783
▁நல்ல	-784
▁இங்கே	-785
▁பாக்க	-786
▁பக்கம்	-787
ma	-788
ரோ	-789
▁A	-790
▁நொ	-791
▁பல	-792
▁ஓடி	-793
ர்க்க	-794
▁முகம்	-795
▁வேணும்	-796
நா	-797
ையோ	-798
▁கச	-799
▁மழ	-800
▁உசு	-801
▁நம்	-802
▁நில	-803
ியும்	-804
▁மாறி	-805
க்குதே	-806
▁கட்டு	-807
▁வாசம்	-808
▁முன்னே	-809
ah	-810
ef	-811
and	-812
uet	-813
ாக்	-814
▁டி	-815
ன்றி	-816
▁அடடா	-817
▁மாட்டி	-818
me	-819
வெ	-820
▁T	-821
ill	-822
ove	-823
▁உனை	-824
▁நிற	-825
▁வரை	-826
Repeat	-827
▁பொண்ணு	-828
▁வாங்கி	-829
பா	-830
வோ	-831
▁P	-832
tha	-833
டாதே	-834
▁தனி	-835
▁இன்ப	-836
▁மோனா	-837
▁மெல்ல	-838
ரச	-839
▁ஷ	-840
வாய்	-841
▁எனை	-842
த்திர	-843
▁தன்ன	-844
▁பிடி	-845
▁பேசி	-846
த்தாடி	-847
▁தள்ளி	-848
▁மின்ன	-849
▁முத்த	-850
லோ	-851
▁o	-852
ஸ்ட	-853
ுது	-854
ங்கோ	-855
ளின்	-856
▁ஃபை	-857
▁கைய	-858
த்தனை	-859
▁போலே	-860
▁யாரு	-861
▁போகும்	-862
is	-863
ாதா	-864
▁ஆச	-865
ந்தே	-866
ய்யா	-867
▁உலக	-868
▁பேர	-869
▁இவன்	-870
▁எந்த	-871
▁சுகம்	-872
▁தினம்	-873
▁ஜிங்குச்சா	-874
ற்க	-875
ியி	-876
▁கரை	-877
▁தம்	-878
▁வேற	-879
ல்லையே	-880
▁அம்மா	-881
▁செய்ய	-882
க்குன்னு	-883
▁வார்த்தை	-884
ed	-885
▁d	-886
பம்	-887
▁உண	-888
▁நோ	-889
▁பீ	-890
டுது	-891
▁ஆஆஆ	-892
▁எடு	-893
▁எழு	-894
▁அழகு	-895
▁நன்ன	-896
ச்சேன்	-897
ற்றும்	-898
OU	-899
ab	-900
▁5	-901
டல்	-902
க்கர	-903
த்தே	-904
▁ஏனோ	-905
▁தான	-906
OUTRO	-907
ங்கம்	-908
ந்தது	-909
▁செல்	-910
▁பேபி	-911
னுக்கு	-912
▁ராகம்	-913
▁வெட்க	-914
▁வெள்ள	-915
▁வேண்டும்	-916
od	-917
ஹே	-918
ant	-919
ion	-920
லைய	-921
க்கல	-922
ரியா	-923
▁the	-924
▁சிற	-925
▁வழு	-926
▁ஒத்த	-927
......	-928
▁ஓடாதே	-929
▁பூக்க	-930
▁மல்லி	-931
ot	-932
ul	-933
▁6	-934
▁W	-935
ent	-936
ாலி	-937
▁உத	-938
▁பய	-939
rain	-940
tion	-941
ண்ணம்	-942
ருக்க	-943
ிறாய்	-944
▁கனவு	-945
▁கன்ன	-946
▁செய்	-947
ச்சான்	-948
ட்டாய்	-949
த்தால்	-950
▁அதில்	-951
க்கணும்	-952
▁கொண்டா	-953
▁போனேன்	-954
▁பார்த்து	-955
ic	-956
▁பட	-957
னேன்	-958
ழும்	-959
▁அதி	-960
▁காவ	-961
▁கிட	-962
▁தமி	-963
▁பனி	-964
▁அய்ய	-965
▁ஒட்டி	-966
க்குதடி	-967
ரத்தில்	-968
os	-969
▁G	-970
▁l	-971
ith	-972
▁பக	-973
க்ரா	-974
▁ஏதோ	-975
▁ரவு	-976
▁அவன்	-977
▁முழு	-978
▁வான்	-979
▁உண்டு	-980
▁வச்சு	-981
த்துக்கு	-982
▁அலேக்ரா	-983
▁உனக்காக	-984
▁என்னோடு	-985
ke	-986
ur	-987
ஷ்	-988
ய்க	-989
ாதே	-990
▁to	-991
▁ரொ	-992
ஞ்சா	-993
தில்	-994
▁தரு	-995
ந்தம்	-996
ந்திட	-997
▁நாள்	-998
▁பண்ண	-999
த்தேன்	-1000
ப்பான்	-1001
▁கவிதை	-1002
▁நின்ற	-1003
▁பின்ன	-1004
▁சுத்தி	-1005
ai	-1006
ap	-1007
டன்	-1008
ர்க	-1009
வது	-1010
ுதே	-1011
▁ஆக	-1012
ியடி	-1013
▁ஹரே	-1014
▁கடவு	-1015
▁பாதி	-1016
▁பேசு	-1017
efrain	-1018
த்தும்	-1019
▁அடியே	-1020
▁எல்லா	-1021
▁தெரிய	-1022
▁கேட்டு	-1023
▁நன்னாரே	-1024
▁7	-1025
×2)	-1026
மாக	-1027
▁தை	-1028
ளியே	-1029
வோம்	-1030
▁ஏய்	-1031
▁ஏலே	-1032
▁ஒடே	-1033
▁தவி	-1034
▁பிர	-1035
▁வான	-1036
த்திய	-1037
ையாய்	-1038
▁எதிர	-1039
▁சாமி	-1040
ர்த்து	-1041
றுக்கு	-1042
▁கண்ணா	-1043
▁கண்ணீ	-1044
▁காதலி	-1045
▁உள்ளம்	-1046
▁வாழும்	-1047
▁கொண்டேன்	-1048
▁மாட்டிக்கி	-1049
ee	-1050
டைய	-1051
▁ஆள	-1052
▁சேர	-1053
▁உசுர	-1054
▁பூமி	-1055
▁பொழு	-1056
▁இங்கு	-1057
▁உயிரே	-1058
▁பட்டு	-1059
▁போட்ட	-1060
▁வாழ்வ	-1061
▁உனக்கு	-1062
▁போதுமே	-1063
க்குள்ளே	-1064
▁கும்மியடி	-1065
Ku	-1066
ஜி	-1067
தன	-1068
zhu	-1069
ண்ப	-1070
ருக	-1071
▁அலை	-1072
▁உண்	-1073
▁மரு	-1074
Final	-1075
▁போனா	-1076
▁மலர்	-1077
▁யாரோ	-1078
▁ராஜா	-1079
▁விடு	-1080
▁கண்ணே	-1081
▁மொத்த	-1082
▁ஆட்டம்	-1083
▁பார்வை	-1084
▁ரெண்டு	-1085
ஞ்சிட்டா	-1086
▁இன்னும்	-1087
In	-1088
ந்	-1089
▁8	-1090
arr	-1091
oth	-1092
▁la	-1093
▁my	-1094
▁ஜெ	-1095
▁டோ	-1096
▁வள	-1097
்ச்ச	-1098
▁ஆமா	-1099
▁கதை	-1100
▁போற	-1101
▁முக	-1102
ியில்	-1103
ென்று	-1104
▁இப்ப	-1105
▁தொடு	-1106
▁நீயே	-1107
▁பார்	-1108
ந்தால்	-1109
மில்லா	-1110
▁தந்தன	-1111
▁தேகம்	-1112
▁நிழல்	-1113
▁இன்பம்	-1114
▁இப்படி	-1115
▁தாண்டி	-1116
ay	-1117
fi	-1118
▁r	-1119
வாக	-1120
▁ஆட	-1121
ட்சி	-1122
மாலு	-1123
மீலு	-1124
▁அணை	-1125
▁அறி	-1126
▁தீர	-1127
▁மாம	-1128
Kuzhu	-1129
க்காத	-1130
▁காலி	-1131
▁கிளி	-1132
▁கோடி	-1133
▁வெயி	-1134
த்திரு	-1135
▁என்னு	-1136
▁டமாலு	-1137
▁விழிய	-1138
▁டுமீலு	-1139
▁போச்சு	-1140
ங்குறேன்	-1141
யிட்டேன்	-1142
▁ஆத்தாடி	-1143
▁கண்ணில்	-1144
▁வந்தால்	-1145
▁வாழ்க்க	-1146
▁மாட்டிக்கிச்சு	-1147
gh	-1148
ud	-1149
ஆஆ	-1150
▁n	-1151
ியூ	-1152
ொரு	-1153
▁இற	-1154
ப்பர	-1155
ரில்	-1156
லில்	-1157
▁ஆகா	-1158
▁ஏறு	-1159
▁சுக	-1160
▁தடு	-1161
▁தின	-1162
▁நீய	-1163
▁போட	-1164
▁வில	-1165
iller	-1166
▁ராசா	-1167
கிறேன்	-1168
ட்டில்	-1169
▁group	-1170
▁உலகம்	-1171
▁ரவுடி	-1172
▁ரொம்ப	-1173
▁எத்தனை	-1174
▁எப்படி	-1175
▁மீண்டும்	-1176
Ou	-1177
aby	-1178
வரை	-1179
ிலே	-1180
▁கர	-1181
ம்பு	-1182
▁தார	-1183
▁மடி	-1184
களில்	-1185
புரம்	-1186
▁with	-1187
▁வாடா	-1188
ங்குது	-1189
டியில்	-1190
ன்றும்	-1191
▁சூப்ப	-1192
▁பாட்டு	-1193
▁விளையா	-1194
ப்போறேன்	-1195
▁சொல்லாம	-1196
▁மறந்தேன்	-1197
ga	-1198
ow	-1199
ver	-1200
களை	-1201
வர்	-1202
▁அற	-1203
▁இடை	-1204
▁உடை	-1205
▁பங்	-1206
ய்யால	-1207
வரும்	-1208
ாகும்	-1209
▁ம்ம்	-1210
க்காரி	-1211
த்தின்	-1212
ப்போம்	-1213
வில்லை	-1214
▁ஆடும்	-1215
▁குத்த	-1216
▁கேட்ட	-1217
▁தண்ணி	-1218
▁காட்டு	-1219
▁நீதான்	-1220
▁புட்டு	-1221
ருக்கும்	-1222
▁உன்னாலே	-1223
▁ரெண்டும்	-1224
all	-1225
தடா	-1226
மலை	-1227
ளிர	-1228
▁வய	-1229
▁வல	-1230
க்கே	-1231
னிலே	-1232
றியே	-1233
விலே	-1234
வ்வா	-1235
▁...	-1236
▁ஆனா	-1237
▁காய	-1238
▁ரசி	-1239
ation	-1240
▁தானா	-1241
▁துளி	-1242
▁நீயா	-1243
▁வெறி	-1244
டுவேன்	-1245
த்திலே	-1246
ந்தேனே	-1247
▁இச்சு	-1248
▁உம்மா	-1249
▁மயிலே	-1250
▁மேகம்	-1251
▁காட்டி	-1252
▁கொக்கர	-1253
▁நீதானே	-1254
▁போறேன்	-1255
▁வெச்சு	-1256
▁உன்னோடு	-1257
▁சொல்லும்	-1258
▁Y	-1259
▁ஞ	-1260
ழகி	-1261
▁In	-1262
▁ta	-1263
▁நன	-1264
▁பச	-1265
▁வச	-1266
குழு	-1267
திரி	-1268
ந்நா	-1269
னால்	-1270
ாரம்	-1271
▁அதை	-1272
▁இதய	-1273
▁பறி	-1274
▁ராய	-1275
Outro	-1276
ந்திர	-1277
▁(×2)	-1278
▁கேளு	-1279
▁பத்த	-1280
▁போடா	-1281
▁மாறு	-1282
▁வச்ச	-1283
▁காத்து	-1284
▁தித்தி	-1285
▁தூக்கி	-1286
▁எல்லாமே	-1287
va	-1288
ஸா	-1289
னடி	-1290
விய	-1291
▁யூ	-1292
Hook	-1293
டியே	-1294
னிமா	-1295
போது	-1296
▁ஓஓஓ	-1297
▁ஓர்	-1298
▁சில	-1299
▁திற	-1300
▁நட்	-1301
▁படி	-1302
▁மேக	-1303
▁வீச	-1304
தம்மா	-1305
யிரம்	-1306
ெட்டு	-1307
▁இங்க	-1308
▁தங்க	-1309
▁மாலை	-1310
▁வேல்	-1311
▁அள்ளி	-1312
▁தீண்ட	-1313
▁விரல்	-1314
▁சொன்னா	-1315
▁நின்னு	-1316
▁பேசும்	-1317
▁மாத்தா	-1318
க்குறேன்	-1319
ந்திடும்	-1320
▁Refrain	-1321
▁காற்றில்	-1322
▁ராயபுரம்	-1323
▁செஞ்சிட்டா	-1324
ir	-1325
மணி	-1326
ல்க	-1327
ழகு	-1328
ுமா	-1329
▁in	-1330
▁ஜொ	-1331
▁மர	-1332
▁யோ	-1333
னாய்	-1334
▁மறு	-1335
▁மறை	-1336
ையின்	-1337
▁ஒன்ன	-1338
▁கடல்	-1339
▁தெய்	-1340
▁தெரி	-1341
▁நானா	-1342
▁ரோசா	-1343
▁வரம்	-1344
▁அன்பு	-1345
▁அழகிய	-1346
▁காத்த	-1347
▁தொட்ட	-1348
▁கும்மு	-1349
▁திரும்	-1350
▁பார்த்தேன்	-1351
iy	-1352
கோ	-1353
வீ	-1354
▁Ch	-1355
▁அர	-1356
▁இட	-1357
▁ட்	-1358
▁லு	-1359
குது	-1360
னின்	-1361
யாது	-1362
ரசலா	-1363
ல்லே	-1364
ாதடி	-1365
ார்ட	-1366
ாலம்	-1367
▁ஊரு	-1368
▁சல்	-1369
▁தாய	-1370
▁நேர	-1371
ையிலே	-1372
▁அச்ச	-1373
▁கொலை	-1374
▁நூறு	-1375
▁ரோஜா	-1376
▁வழிய	-1377
▁வீசு	-1378
ியலையே	-1379
▁Verse	-1380
▁ஆனேன்	-1381
▁எனக்க	-1382
▁என்னா	-1383
▁டப்பர	-1384
▁முடிய	-1385
▁கொஞ்சி	-1386
▁சுத்து	-1387
▁ஜிந்தா	-1388
▁மெரசலா	-1389
▁வெண்ணி	-1390
▁என்றால்	-1391
▁கும்முறு	-1392
▁மெரசலாயிட்டேன்	-1393
ba	-1394
மர	-1395
வர	-1396
cho	-1397
pen	-1398
னேனே	-1399
ப்பூ	-1400
லிங்	-1401
வேனே	-1402
▁ஆடி	-1403
▁கசா	-1404
▁பாத	-1405
▁கண்க	-1406
▁தள்ள	-1407
▁தீயே	-1408
▁மியா	-1409
▁மெது	-1410
chorus	-1411
க்காதே	-1412
ட்டியே	-1413
ந்தும்	-1414
▁நச்சு	-1415
▁உன்னால	-1416
▁யாவும்	-1417
க்கிறான்	-1418
▁முடியாது	-1419
▁தூத்துக்கு	-1420
ak	-1421
ec	-1422
ive	-1423
kku	-1424
மம்	-1425
மான	-1426
▁11	-1427
▁li	-1428
▁ti	-1429
▁கத	-1430
▁டீ	-1431
▁டூ	-1432
▁தவ	-1433
▁மக	-1434
aath	-1435
anna	-1436
பகம்	-1437
லாய்	-1438
லோடு	-1439
வின்	-1440
ஹான்	-1441
▁ஒரே	-1442
▁சாய	-1443
▁பொற	-1444
▁வலி	-1445
▁விட	-1446
▁விழ	-1447
▁Love	-1448
▁அண்ண	-1449
▁அழகி	-1450
▁சங்க	-1451
▁நண்ப	-1452
▁பிரி	-1453
▁பூவே	-1454
▁மின்	-1455
▁மொழி	-1456
ட்டாள்	-1457
ந்தாய்	-1458
ப்பாயா	-1459
▁எண்ணி	-1460
▁காவடி	-1461
▁பாடல்	-1462
▁முருக	-1463
▁ஆயிரம்	-1464
▁ஆனாலும்	-1465
▁கண்ணாடி	-1466
▁கொய்யால	-1467
▁சித்திர	-1468
el	-1469
ஜ்	-1470
ght	-1471
hal	-1472
uth	-1473
வள்	-1474
வான	-1475
ஸ்க	-1476
ாரோ	-1477
ாலு	-1478
▁co	-1479
▁மண	-1480
லாமா	-1481
ாரன்	-1482
ாலென	-1483
▁and	-1484
▁எரி	-1485
▁கனி	-1486
▁நடு	-1487
▁புய	-1488
▁வரி	-1489
ங்கிய	-1490
ட்டுல	-1491
ந்ததே	-1492
▁baby	-1493
▁இவள்	-1494
▁கால்	-1495
▁கிழி	-1496
▁குடி	-1497
▁குதி	-1498
▁குரு	-1499
▁சாய்	-1500
▁சுவா	-1501
▁தீர்	-1502
▁பட்ட	-1503
▁பாடு	-1504
▁பின்	-1505
▁மண்ண	-1506
▁ஹாலே	-1507
▁கிள்ள	-1508
▁சுத்த	-1509
▁தந்தா	-1510
▁தொடர்	-1511
▁வருதே	-1512
▁வைத்த	-1513
▁ஹாலென	-1514
க்கட்டி	-1515
▁அழகியே	-1516
▁இருக்க	-1517
▁இல்லாம	-1518
▁கன்னம்	-1519
▁முத்து	-1520
▁யாத்தே	-1521
▁வெட்டி	-1522
ந்நாளும்	-1523
▁எங்கும்	-1524
▁கருப்பு	-1525
▁சேர்ந்த	-1526
▁வெட்கம்	-1527
▁இருக்கும்	-1528
id	-1529
▁K	-1530
▁O	-1531
ானை	-1532
ியை	-1533
▁it	-1534
▁se	-1535
▁ஞா	-1536
▁ரே	-1537
▁லே	-1538
Narr	-1539
னியே	-1540
▁அயே	-1541
▁இசை	-1542
▁கலை	-1543
▁குழ	-1544
▁சலே	-1545
▁செவ	-1546
▁மாற	-1547
கிறதே	-1548
க்கடி	-1549
்த்து	-1550
▁Hook	-1551
▁time	-1552
▁எனது	-1553
▁கூடி	-1554
▁தமிழ	-1555
▁நொடி	-1556
▁மன்ம	-1557
▁ஸ்ஹா	-1558
ந்தாக்	-1559
விட்டு	-1560
▁சென்ற	-1561
▁தடுமா	-1562
▁தூத்த	-1563
▁நின்ன	-1564
▁பட்டா	-1565
▁பாத்த	-1566
▁புரிய	-1567
▁மோகம்	-1568
▁வச்சி	-1569
▁விட்ட	-1570
▁ஹவ்வா	-1571
.......	-1572
க்கிறதே	-1573
▁அழகாய்	-1574
▁காணும்	-1575
▁கையில்	-1576
▁சத்தம்	-1577
▁சேரும்	-1578
▁பட்டம்	-1579
▁யாச்சே	-1580
▁வேணாம்	-1581
▁வேண்டா	-1582
▁வைத்து	-1583
▁மின்னல்	-1584
▁வந்தாய்	-1585
▁வந்தேன்	-1586
▁சேர்ந்து	-1587
▁ஜிந்தாக்	-1588
▁மாத்தாடு	-1589
க்கப்போறேன்	-1590
▁கொக்கரக்கோ	-1591
▁புடிச்சேன்	-1592
▁நெஞ்சுக்குள்ள	-1593
ck	-1594
fe	-1595
யூ	-1596
▁k	-1597
ody	-1598
ter	-1599
மைய	-1600
வளே	-1601
▁12	-1602
▁அச	-1603
▁ஆர	-1604
▁ஓர	-1605
▁ஜா	-1606
▁டே	-1607
▁	-1608
்	-1609
\	-1610
]	-1611
[	-1612
R	-1613
C	-1614
I	-1615
க	-1616
ு	-1617
L	-1618
Y	-1619
த	-1620
ா	-1621
ி	-1622
ன	-1623
ம	-1624
ட	-1625
e	-1626
ல	-1627
ப	-1628
ே	-1629
ச	-1630
வ	-1631
ர	-1632
a	-1633
ந	-1634
ய	-1635
.	-1636
ை	-1637
ண	-1638
r	-1639
E	-1640
l	-1641
ோ	-1642
t	-1643
ற	-1644
ள	-1645
s	-1646
V	-1647
m	-1648
S	-1649
ெ	-1650
எ	-1651
அ	-1652
o	-1653
ொ	-1654
உ	-1655
இ	-1656
ஆ	-1657
ீ	-1658
i	-1659
–	-1660
ழ	-1661
:	-1662
M	-1663
p	-1664
ங	-1665
ூ	-1666
n	-1667
ஹ	-1668
_	-1669
u	-1670
v	-1671
d	-1672
ஒ	-1673
h	-1674
-	-1675
ஞ	-1676
ஓ	-1677
F	-1678
k	-1679
c	-1680
ஏ	-1681
ஜ	-1682
U	-1683
f	-1684
y	-1685
g	-1686
O	-1687
A	-1688
z	-1689
7	-1690
ஸ	-1691
x	-1692
Z	-1693
G	-1694
H	-1695
b	-1696
,	-1697
*	-1698
)	-1699
(	-1700
2	-1701
1	-1702
'	-1703
ஊ	-1704
T	-1705
w	-1706
ஷ	-1707
B	-1708
?	-1709
N	-1710
ஐ	-1711
ஃ	-1712
{	-1713
}	-1714
3	-1715
4	-1716
D	-1717
K	-1718
ஈ	-1719
P	-1720
5	-1721
×	-1722
!	-1723
&	-1724
6	-1725
j	-1726
8	-1727
W	-1728
